96969696969696969696969696969696969696969696969696969696969696969696969696969696969696969696969696969696969696969696969696969696969696969696969600000000
96969696969696969696969696969696969696969696969696969696969696969696969696969696969696969696969696969696969696969696969696969696969696969696969600000000
96969696969696969696969696969696969696969696969696969696969696969696969696969696969696969696969696969696969696969696969696969696969696969696969600000000
96969696969696969696969696969696969696969696969696969696969696969696969696969696969696969696969696969696969696969696969696969696969696969696969600000000
51788ea76da097ff9f96cd2eac789663c18e9677917aa3819674a888969696b6887bb696b08e7096ad79968a98be9686bd969d5f4e77a26e9695ad2c7382c8979696939691837f620000cfc0
96ce8cb3d983c2d6b596a79372a796803ab396a0a5a6918c96963cce9696965189bfa1967cb1659698b696b4dcc1969da4969cae9ba455b096998d6c80dd90829696a596ad6ec29dffff7e46
979696969696969696969696969696969596969795969596969596969696969596959696949696969696969696969697959696969596969796959696969696959696969696969796000002c8
96969696969696969696969696969696969696969696969696969696969696969696969696969696969696969696969696969696969696969696969696969696969696969696969600000000
96969696969696969696969696969696969696969696969696969696969696969696969696969696969696969696969696969696969696969696969696969696969696969696969600000000
96969696969696969696969696969696969696969696969696969696969696969696969696969696969696969696969696969696969696969696969696969696969696969696969600000000
9c8b806cb8988fa69796a8c872a996ba7c909697ab5284b5969499949696969593be8a964374989687439690a19596b9a6968a5f8f86a79c968f86a46f858dc296968d96947459cc000073d3
96969696969696969696969696969696969696969696969696969696969696969696969696969696969696969696969696969696969696969696969696969696969696969696969600000000
96969696969696969696969696969696969696969696969696969696969696969696969696969696969696969696969696969696969696969696969696969696969696969696969600000000
f091a17fc277acb68e96898a5d799677699596adc3905476968d847f96969693b2aeab9662a5a2966d9c96adc7a6969b7096aa879d86a09a96ada09172b166b29696ad96bc9c8e8200000c32
819179aa8da68d8d92968e7b8993969d9f9f9684b4809e9696979fb2969696b4ab92779677aa9c969d9e96b3949396bba69694bd87898a9796ac946b7794909e96967e968298a49500000a39
96969696969696969696969696969696969696969696969696969696969696969696969696969696969696969696969696969696969696969696969696969696969696969696969600000000
96969696969696969696969696969696969696969696969696969696969696969696969696969696969696969696969696969696969696969696969696969696969696969696969600000000
ad9090a594a98985949693a3968296959d8996978591999a96989d8e9696969d91908f9692969096566f96768593966a8c9695807d989c88968f776d7b84917f969685968ea87b910000ccde
c48d628b6f55c88e9096b89bb39b96a77db896a99194869b96507748969696a38f97829654cb85967d81965cb3ae96bca796c5b7cd948dc296ba68ae9fa7cd959696c696ada8caa5ffffa9d9
ab895ea893a48ca08996ca8994ba96ae667496997b56a2c596819691969696a376857d96639f7696c3ba96b18e9196967896a09caea2788996909ea29c7e42bb96967e96577a789400008cac
96969696969696969696969696969696969696969696969696969696969696969696969696969696969696969696969696969696969696969696969696969696969696969696969600000000
96a489768cbd8b6892967edaa8729697c59596858f99cf89969b776c969696736aa0b296ba86a0967c7e96ae9fb696a77f96a1676989b277967bc59fbe95c16096966f96718f837700005435
96969696969696969696969696969696969696969696969696969696969696969696969696969696969696969696969696969696969696969696969696969696969696969696969600000000
a98c7f9e86a97c959496998099979689a29c96a48c8c9b8e969b9aa39696968f95778d96a89a8696a091968a809e969c98969da6a49d879d96a79b929d8f8d82969698969197868e000021c2
96969696969696969696969696969696969696969696969696969696969696969696969696969696969696969696969696969696969696969696969696969696969696969696969600000000
c076a0d567db8aaa8c96b1aa6fbf96b662a096f992a2859a968c7ea99696969abc67779693819d96b59b967392a796b98596a48cdeac889d96ac4cd49c9082959696bd968993998affff8950
979696969696969696969696969696969696969696969696969696969696969696969696969696969696969696969696969696969696969696969696969696969696969696969696ffffff89
96969696969696969696969696969696969696969696969696969696969696969696969696969696969696969696969696969696969696969696969696969696969696969696969600000000
96969696969696969696969696969696969696969696969696969696969696969696969696969696969696969696969696969696969696969696969696969696969696969696969600000000
8f90bcb5cd816ca8b796657a73ba96919f9e969ab38d559d9695d4e19696969bbdb5da96c8978596926e96a79a8d96979896757f7eaea7779672b790755c44b896969296acb480b3ffffcba1
81aa8892a9986e9790969b8c73b096c27d9696c3a90086a796969292969696b89778bd965179649697549685a38f96c29396ac84a694b9bd9685b47ec3ae6c929696ba96cccf6ba80000133c
ec6f9fbb81868171a1969e95856a96a2ab4b967e8f8589a096a78a8d969696dca5989096a1929c968a6a96ad6e7796c59196976b86bea7a5966b85a1749089a09696c996b6cc918b00001bca
96969696969696969696969696969696969696969696969696969696969696969696969696969696969696969696969696969696969696969696969696969696969696969696969600000000
96969696969696969696969696969696969696969696969696969696969696969696969696969696969696969696969696969696969696969696969696969696969696969696969600000000
96969696969696969696969696969696969696969696969696969696969696969696969696969696969696969696969696969696969696969696969696969696969696969696969600000000
96969696969696969696969696969696969696969696969696969696969696969696969696969696969696969696969696969696969696969696969696969696969696969696969600000000
96bfc4b989b9808eac9664a37bca96b57c7196688aaf9b6096bd9caa9696967c9a8b9796e74f9d96c28696ce65859696639677677f918d83969697b78477648b96967f96828467b400006c2c
ab7e81809be8918f51967aada38396bd915a96b77a9edb7e969099a6969696818c9f3b96de9697969a9a96a68552967a9596918b944e8b6096ad8aae9066ad889696419645946c630000ebe2
96969696969696969696969696969696969696969696969696969696969696969696969696969696969696969696969696969696969696969696969696969696969696969696969600000000
8788849d8ab3a07a569686a085c396a699789676879cae92967f8baf969696797f9a70969e9bad968c9496c2927f96a7a1967eb3a59a908496c566a67275829a969678965495758900009719
a36c985e6ac2ccc0a596ab93828396c1698996a746da8189968936b7969696a6cb4695968a95bc96a2ab967f72909680ab969f969e8989a9969299aaba94cc5896969d969c8dbb6c00001f51
96969696969696969696969696969696969696969696969696969696969696969696969696969696969696969696969696969696969696969696969696969696969696969696969600000000
96969696969696969696969696969696969696969696969696969696969696969696969696969696969696969696969696969696969696969696969696969696969696969696969600000000
908e97b8c7a08d897f96895f915b967a8a6896ae77a8b9ad9689a0a89696968c7e9b7f96b2aa75969090967f71979676879694786a7aaa9f96b0949f798987a796968a968aaa40800000bc8d
be64bd95b884a4b0a1968b97cb66969eb970967ea56da4d4964ea476969696b3998c939664fb94964b8d966ec39f96b8d896aeba71a4a4b39667ba26adb4c0ae969694968fa696bbffff9928
deb1b57daf786a8ca0969bc569a79698a9ae9670dc9ba767968d93d59696967673d4ac96baa68f9670bb96a4c59c96787a96748f62a1aa5a9675ce9d799c8cb996965a96894b93c7ffffe4e8
9b969696969596969696969696969695959696979695959696959696969696959595959692979596959896979796969796969696959693969697949596969595969695969596969600000553
9a9696969596969696969696969696969595969795959596969596969696969595949596949695969496969696969696949696959696949696969596969695959696949695969596000009a1
96969696969696969696969696969696969696969696969696969696969696969696969696969696969696969696969696969696969696969696969696969696969696969696969600000000
ae9fa0b1b0a8a59ab096aecea6bf96d4968c96ad989e70b196aa95b3969696a5bbacce96939da396a2b796bb99bc96d67d96d47ab4d6a5c796b4b5b4b5b17acf9696ba96b4c19fbefffdf935
96969696969696969696969696969696969696969696969696969696969696969696969696969696969696969696969696969696969696969696969696969696969696969696969600000000
96969696969696969696969696969696969696969696969696969696969696969696969696969696969696969696969696969696969696969696969696969696969696969696969600000000
96969696969696969696969696969696969696969696969696969696969696969696969696969696969696969696969696969696969696969696969696969696969696969696969600000000
96969696969696969696969696969696969696969696969696969696969696969696969696969696969696969696969696969696969696969696969696969696969696969696969600000000
77bc7c969669b27d669685a3a45e96a2768a96b5ab91dc619689788e969696a375b65896a685849690a7965a8a85968f8a966b9158b19a9b968b48bf397ea4959696b296868d7d8d0000f62e
96969696969696969696969696969696969696969696969696969696969696969696969696969696969696969696969696969696969696969696969696969696969696969696969600000000
96969696969696969696969696969696969696969696969696969696969696969696969696969696969696969696969696969696969696969696969696969696969696969696969600000000
ae698f6abaa846b6909687767da19686719a964da5b63c8e965a989b9696967275aebc967ca19996a9ac969e768c968c82969094aca98c8f9672b1569b996da596968c96af85b29a0000bcce
96969696969696969696969696969696969696969696969696969696969696969696969696969696969696969696969696969696969696969696969696969696969696969696969600000000
97969695969796969696969596969696969696979696969696969696969696959696969696969696969696959696969696969696959696959695969696969694969696969695969500000337
969497969796969795969897939796979696969696959597969796979696969698969596959695969598969898969696979694979796959596969596969694989696969696959696fffffe58
96969696969696969696969696969696969696969696969696969696969696969696969696969696969696969696969696969696969696969696969696969696969696969696969600000000
a590719e899e8e6c8a96a0649ba3967aaf74968e808db58696c597929696967f8b4ab396b7677f96b7b596c0947e9682869697a096ac8c8f96b56a968482849e969686967b7955760000a8d9
a89092a88f9e908b98969095919196869f9a96988a94969c9693988e9696969b908d9e96899690965e74967d8b9796759196968a8299958f968c8d81949c968396968c969c92909500008298
96969696969696969696969696969696969696969696969696969696969696969696969696969696969696969696969696969696969696969696969696969696969696969696969600000000
96969696969696969696969696969696969696969696969696969696969696969696969696969696969696969696969696969696969696969696969696969696969696969696969600000000
8fc37d87b06259e598969eb777b49631cba99691c26fd86a969c89bb969696955985c096c2956a968cc196a3bab2966fa7969ea4a7a85c4c96bbb791a88c8e7c969661969b6b936700001ed9
8350d9624fb073728d96be7fa29496d8cd51965e667e7eb89681c25d969696e9974f9296a09ed396916d96a54c7896969a96a4b098b7d493964bc78ab97485d2969692967d8e8fad00005158
96969696969696969696969696969696969696969696969696969696969696969696969696969696969696969696969696969696969696969696969696969696969696969696969600000000
96969696969696969696969696969696969696969696969696969696969696969696969696969696969696969696969696969696969696969696969696969696969696969696969600000000
96969696969696969696969696969696969696969696969696969696969696969696969696969696969696969696969696969696969696969696969696969696969696969696969600000000
96969696969696969696969696969696969696969696969696969696969696969696969696969696969696969696969696969696969696969696969696969696969696969696969600000000
