81818181817281818179818181818181817e818181819281818381af7a81819361815b87818181814e7c5f818181448184817d81c9ad8381818d968181c481818181927481818181ffffe7b1
81818181818181818181818181818181818181818181818181818181818181818181818181818181818181818181818181818181818181818181818181818181818181818181818100000000
81818181818181818181818181818181818181818181818181818181818181818181818181818181818181818181818181818181818181818181818181818181818181818181818100000000
81818181c34181818482818181818581818f8181818175818181909e7381818e418151a0818181816f6d7f8181816d81808171818548808181867181818181818181378d8181818100005e60
8181818181808181818181818181828181808181818181818181808081818181808181808181818182828181818180818081818180818181818182818182818181818280818181810000018b
818181817d7f81818574818182818881818a8181818157818180b57d8d81818193817da0818181817992a581818162817f817981898383818182988181be81818181957e81818181ffffb3aa
81818181818181818181818181818181818181818181818181818181818181818181818181818181818181818181818181818181818181818181818181818181818181818181818100000000
81818181818181818181818181818181818181818181818181818181818181818181818181818181818181818181818181818181818181818181818181818181818181818181818100000000
81818181844f81817c87818081818c81818c8181818189818181892a80818161798147c581818181938d9c81818180817e81a6817e65858181997281818181818181588b81818181000023d4
81818181818181818181818181818181818181818181818181818181818181818181818181818181818181818181818181818181818181818181818181818181818181818181818100000000
81818181927881818b6b81838181a881818781818181898181816c89728181798c81637781818181a0e8a58181816d8183818f8183868e81816e768181fe81818181828081818181ffff91d4
81818181818181818181818181818181818181818181818181818181818181818181818181818181818181818181818181818181818181818181818181818181818181818181818100000000
81818181818181818181818181818181818181818181818181818181818181818181818181818181818181818181818181818181818181818181818181818181818181818181818100000000
8181818177bd81818192818181819d81818881818181508181817eb77181813e4a81758381818181908a8a8181814681918181815142878181878181815c81818181c0d78181818100001340
81818181618881818280818181816f81818781818181be8181846b827e8181599a81647981818181815d788181829c819381708191828081819b8481819481818182988f81818181ffffedab
81818181ad7b81818366818082815a8181c1818181813481818179a46b8181d0ae818e378181818158b5a581818179816a815a81559d838181867481818d818181813b56818181810000334c
81818181818181818181818181818181818181818181818181818181818181818181818181818181818181818181818181818181818181818181818181818181818181818181818100000000
81818181836c8181c48781838181818181b481818181168183845c56cc81819f9d81729881818181baad768181816281a9816081a2a8d9818174aa81819e818181828bc081818181ffff58b9
818181818a6981817a8e817f80819c818170818181815c818283ae89918181818c816f8281818181c381898181819d8172819581788e79818170f18181a381818180738281818181ffff9b15
81818181b088818179918181808172818163818181814d8181819081a681818a5481748481818181947d748181815581a881ad817e5e7f81816f7481818c818181813e6d8181818100003be3
81818181916381817459818081810981817c818181816d8180826970988181aa9081b4ba818181816f634e8181809a817c817d81665e72818169a38181788181818179b18181818100004da6
81818181818181818181818181818181818181818181818181818181818181818181818181818181818181818181818181818181818181818181818181818181818181818181818100000000
81818181818181818181818181818181818181818181818181818181818181818181818181818181818181818181818181818181818181818181818181818181818181818181818100000000
81818181818181818181818181818181818181818181818181818181818181818181818181818181818181818181818181818181818181818181818181818181818181818181818100000000
81818181818181818181818181818181818181818181818181818181818181818181818181818181818181818181818181818181818181818181818181818181818181818181818100000000
81818181818181818181818181818181818181818181818181818181818181818181818181818181818181818181818181818181818181818181818181818181818181818181818100000000
81818181818181818181818181818181818181818181818181818181818181818181818181818181818181818181818181818181818181818181818181818181818181818181818100000000
81818181818181818181818181818181818181818181818181818181818181818181818181818181818181818181818181818181818181818181818181818181818181818181818100000000
81818181856c8181688481838181458181e081818181668181817aa681818168aa81bd6e8181818175706a8181812c816c8181815d926a818185888181818181818184b28181818100001e91
81818181798c8181858281808181a781816d8181818198818181ba8c698181776a815f73818181815979ae8181816c8197817b817a6490818166828181658181818170558181818100003384
81818181818181818181818181818181818181818181818181818181818181818181818181818181818181818181818181818181818181818181818181818181818181818181818100000000
81818181d2898181836c8182818168818196818181816f818181776d838181886e81506f81818181759e3a818181b8817f815a81ad9083818189738181758181818281748181818100001666
81818181818181818181818181818181818181818181818181818181818181818181818181818181818181818181818181818181818181818181818181818181818181818181818100000000
81818181818181818181818181818181818181818181818181818181818181818181818181818181818181818181818181818181818181818181818181818181818181818181818100000000
81818181818181818181818181818181818181818181818181818181818181818181818181818181818181818181818181818181818181818181818181818181818181818181818100000000
81818181818181818181818181818181818181818181818181818181818181818181818181818181818181818181818181818181818181818181818181818181818181818181818100000000
8181818165ac818185eb818383815a818158818181816581838148686981817ba481788681818181874d968181816e819c818e819d4883818186b3818167818181817c5a8181818100002e3c
81818181818181818181818181818181818181818181818181818181818181818181818181818181818181818181818181818181818181818181818181818181818181818181818100000000
81818181818181818181818181818181818181818181818181818181818181818181818181818181818181818181818181818181818181818181818181818181818181818181818100000000
81818181818181818181818181818181818181818181818181818181818181818181818181818181818181818181818181818181818181818181818181818181818181818181818100000000
818181818181818181818181818181818181818181818181818181818181818281818182818181818181818181818181818182818181818181818181818181818181818181818181fffffebc
81818181818181818181818181818181818181818181818181818181818181818181818181818181818181818181818181818181818181818181818181818181818181818181818100000000
81818181758281818a5a818481818e8181708181818170818180693f8581816fac810068818181817ac867818181998178818d81d4969081816c578181a481818181998a81818181000020e1
81818181818181818181818181818181818181818181818181818181818181818181818181818181818181818181818181818181818181818181818181818181818181818181818100000000
81818181259e81818679818280818681817d818181817c818181b65f5081815d5b816aae818181816d6c71818181678178819a816c8b8081817b9981819e81818181ca348181818100004ade
81818181818181818181818181818181818181818181818181818181818181818181818181818181818181818181818181818181818181818181818181818181818181818181818100000000
81818181818181818181818181818181818181818181818181818181818181818181818181818181818181818181818181818181818181818181818181818181818181818181818100000000
818181816d9c81818b65817f82815e8181bb81818181148183839f97b381816c7881bb7a818181818762a28181818781968191816c9f7d8181686e818193818181829d6e81818181ffffe876
818181814f5b8181768d81848181b3818172818181815f8182812f3daf8181a8988177b581818181adc3b38181818b818e815c81475c6c818187b181814d81818181c67a81818181fffff7aa
81818181818181818181818181818181818181818181818181818181818181818181818181818181818181818181818181818181818181818181818181818181818181818181818100000000
81818181818181818181818181818181818181818181818181818181818181818181818181818181818181818181818181818181818181818181818181818181818181818181818100000000
81818181818181818181818181818181818181818181818181818181818181818181818181818181818181818181818181818181818181818181818181818181818181818181818100000000
81818181818181818181818181818181818181818181818181818181818181818181818181818181818181818181818181818181818181818181818181818181818181818181818100000000
81818181818181818181818181818181818181818181818181818181818181818181818181818181818181818181818181818181818181818181818181818181818181818181818100000000
818181813b4c8181887b818382817281816c818181817a81828183985c8181915181954f8181818164624781818145818781dc817d9c8281818f9381818281818181995a818181810000706a
818181819d938181799381818181988181a08181818160817f81886dbd818164c2817a8f81818181704e6f818182b281a6813b81b8689d8181a08981816c81818180669081818181ffffc41d
81818181818181818181818181818181818181818181818181818181818181818181818181818181818181818181818181818181818181818181818181818181818181818181818100000000
818181818b638181ce6b817d8181eb81816e8181818157818381737ac0818182a5815a728181818185997d8181804f819f818881a678ed8181d4c081816781818181887781818181ffff7090
81818181818181818181818181818181818181818181818181818181818181818181818181818181818181818181818181818181818181818181818181818181818181818181818100000000
81818181818181818181818181818181818181818181818181818181818181818181818181818181818181818181818181818181818181818181818181818181818181818181818100000000
81818181498181819661818483817381819381818181548182816f705c81818f7681497881818181757982818181b58182815d8189bc8381817f8b81817a81818182c289818181810000294d
81818181818181818181818181818181818181818181818181818181818181818181818181818181818181818181818181818181818181818181818181818181818181818181818100000000
81818181818181818181818181818181818181818181818181818181818181818181818181818181818181818181818181818181818181818181818181818181818181818181818100000000
818181813f2881817c73817f8181d6818190818181819f8181818a48a18181565981529a818181816d50828181817f8189818881916c7c818179a581815481818181b5808181818100004e70
81818181818181818181818181818181818181818181818181818181818181818181818181818181818181818181818181818181818181818181818181818181818181818181818100000000
81818181818181818181818181818181818181818181818181818181818181818181818181818181818181818181818181818181818181818181818181818181818181818181818100000000
818181817f82818182808181818181818181818181817f8181818181808181808081807e8181818181807e8181817e817f8181818182818181838281818181818181808581818181000004ca
81818181818181818181818181818181818181818181818181818181818181818181818181818181818181818181818181818181818181818181818181818181818181818181818100000000
81818181a26881818086818381818e81815c81818181ad81818189668f8181b16d816087818181817c894e8181818681778187819d8c8081816a6f81818f81818181689681818181fffffeea
81818181818181818181818181818181818181818181818181818181818181818181818181818181818181818181818181818181818181818181818181818181818181818181818100000000
818181816e528181368a81818181798181e181818181308182837d9ea681815b90815b9b818181817685b0818182b8818d817581dc5d30818170a181819781818181a15081818181000000c3
81818181818181818181818181818181818181818181818181818181818181818181818181818181818181818181818181818181818181818181818181818181818181818181818100000000
