7f91af95a06c7781938e9dee797b9b7461b396768f899393a27789abac618e934ca88787cfacdd77a9a6a8a370a8c591ae938574919bbbb880938d9fa985927ac3a493b26f3d96a5ffffe02b
8a9f9c79a16c7e8a937970ba98d393517a7e615caa7a93937f7c996b98a28d9384b5938a75af907f7f98a4aeada19aa18e938f9084709092a18cb54b8288ccfe95969384aab2b294000032c4
9c9693879090b7b59388837b8bab918f8b92a890959093937b8f8e7f9b8898938b8d94978690909688857c7892937e819093a0b0958c85859d7aa57684919887738c938b85be9488000068a5
93939393939393939393939393939393939393939393939393939393939393939393939393939393939393939393939393939393939393939393939393939393939393939393939300000000
93939393939393939393939393939393939393939393939393939393939393939393939393939393939393939393939393939393939393939393939393939393939393939393939300000000
bd95807788bdbd2c93a0916a79b990b2a79e63a3749293938891787982b28b93a6a49e98817c7aa485979cb99583686e8893788ca091766683a19d96919d82ae815f938772b5acac00007e7d
93939393939393939393939393939393939393939393939393939393939393939393939393939393939393939393939393939393939393939393939393939393939393939393939300000000
826da4b3afa78ba093c17d93909e93a08f64a99146899393a8b08e6949868b9399bbaa95a2fe618253bab0a281c79b3bc8937c9b786f84b9d394a4a0a4949a95a76793b4b48cbdedffff8748
547dababac6493989335bda1a0918ab47f9ea1ac9e879393a7809d9b78c6ba9364b587739b8cb6a2be51889579a795a381936ec78d958f91a45e705fa1c593a5879b9396c468ca8cfffff315
93939393939393939393939393939393939393939393939393939393939393939393939393939393939393939393939393939393939393939393939393939393939393939393939300000000
9658838d94946cb19392c488ab9576c990ad8bc6ca999393b266d1aac698e6937152b1967aa0c5b19a7b8373a865b4df9a939b80a2b99b567dbf939a8997668869a19392938f796fffff9922
a19673777e9a9fa79382a381a380a6c5a577aed7b98e93936a9d6f6da688e49366ae65ad7e8ca7d9b1b88c8c75986bad79939e8f9581b67781739f5885e99a96799d93c2b28b6a4affffe5ae
93939393939393939393939393939393939393939393939393939393939393939393939393939393939393939393939393939393939393939393939393939393939393939393939300000000
ac887c6e93b0c1ca939368756ea997928688c38c977e93936b7c4e5ba684a2938e7dae7c5ea2768f8a858a91ad8d8baa9693ab78878b985c9687a39d758464a2847f938ba4cd8c9d0000a17d
73768ea0a44f9a8a939db5c1b88d7b7496bc6070799e9393b74dd3be9e79b8938888b78ba8cea9848963b18ea565fda1a59372969875a98fa885b48170a8738498a293c68882b2beffffa2ba
93939393939393939393939393939393939393939393939393939393939393939393939393939393939393939393939393939393939393939393939393939393939393939393939300000000
6fa3918aa2be618493a67fad9591a6b5a2acae9d9aac9393957d6c998b97a09379b390a8a3749e8ac68093e5017d864b7a93b45c9582958f90774d8d98b09aa2cc8e93a88e68b984000027ef
be9f76758cad889093b37add738da58c9b7fb18bb47f939388b4908d93818f93a68f9eae85c28a909b88ccda9572a19cb693c0719a83eb8276c2b4bf71a7849ccf9093a65d799e8affff3d5b
69c7a6aeb67b7a78939d818291967d9aa57eb68c3397939381d5509c57ab7693b5805da3954c9b749ab09d7ab1e0b37c62938ba89da97ce1a071837d9d77cc97886f9361a8a7abd600002030
95ac8f7d97949bb493a7948b97df8d80bf90b49a93b19393956580b69ca8959358978aa24d99a69175a7b7b4999b658db093b16192a993997282b787739a898984a593837090747bfffff8e4
919292929392929293919193929392939292919392929393929291939293929393949292929293939292929392939292939392929392929292929292929392939392939292929392000017c4
93939393939393939393939393939393939393939393939393939393939393939393939393939393939393939393939393939393939393939393939393939393939393939393939300000000
93939393939393939393939393939393939393939393939393939393939393939393939393939393939393939393939393939393939393939393939393939393939393939393939300000000
93939393939393939393939393939393939393939393939393939393939393939393939393939393939393939393939393939393939393939393939393939393939393939393939300000000
94967ca6a8ba70909388a67c87969680aa86ab94c8a6939379b68f88b04b8e93a8a28bb57766888bb2a091ac8d8351a98293aa5c928e9f818daf8e8d7ba3b6b78e8f936e828f4d90000035f5
8d8e9290959191939390948e928e939591938f9193919393958e8e92908d9293908e93938f97919391918e8e8d948e8f9493918f93938e9494918d91948f8d8d8f929395908e8e94000042bd
aacda09ec4a187a893be9b73c4b1ae78cc97b98883cb93939e7a9ed6a26f5993c38077b6548c91917fc6b39393aa87a98d93a14298c066d68ca0a48e6f908db494a3939a6dc243a7ffff41e0
804f8280b07a718d93a5d091937b9eb5ad6b95d0c5629393997fae8bbc58e393678c95bfb5a88f9a969f9267b06fedc2a1939c967a6f8f90cdb5967585bf69ae7c7393b0bd7a71a2ffff9cb4
99908692978c8d9693a098768a93998d8e9d718da99993939e95bd99ad7f9693949ba7a079a990939473889b936b8d9c9993836b928b917883a1a884998a9caa8b9493aa81a0c28f000004f0
93939393939393939393939393939393939393939393939393939393939393939393939393939393939393939393939393939393939393939393939393939393939393939393939300000000
b0928e8d8ea4c060937da8777aa28a86928f588f7e9493938b965d98908c9293b7749f91957a8f8b7b9aa394b27ea6918d937a9c8e9d8790b285a9b07b938a9a8193938c88b977a3000051dd
93939393939393939393939393939393939393939393939393939393939393939393939393939393939393939393939393939393939393939393939393939393939393939393939300000000
93939393939393939393939393939393939393939393939393939393939393939393939393939393939393939393939393939393939393939393939393939393939393939393939300000000
93939393939393939393939393939393939393939393939393939393939393939393939393939393939393939393939393939393939393939393939393939393939393939393939300000000
ac80b2a5a2a08e9d93937d959f7359ac8c78a791ac95939391b93e7b80a4a493977c9595ae805d95848e868a849b447ea693a4bb8f978363bbb28eaac770a089988b9382cd918f91000026b4
af899b8e8dafbba993817e777c9e93a28692968d818c93936c8e857a97aa8693769894867f8e94917c73969796947d8086939eac968e9a6c9598a39b847e9072647993919dbec37600007b58
c0977d5c82774c5f9391768267919389949382939393939393789393959b7593936e9393b082939793977282637177934f9385b2939466739f815bb56f86727093979371ab879d5600018b51
93939393939393939393939393939393939393939393939393939393939393939393939393939393939393939393939393939393939393939393939393939393939393939393939300000000
82a57fa45e79788b93865db0935add9781a792d0d7a39393b2d1a27aed727493e5c4adc0cbc462bedd8e8a867e6eac8cb69374809f9493a05ec37d749fc2b97ed3aa93cc896b635dffff3716
a196939281acbeb99355ac709cb186b3a675c9903e959393806b97990ed5bf9394beb45869a8bf7c6ec0a4a891c976608493a7909b6ea2908c7fa69d8ea389858278937796a5aea60000095b
93939393939393939393939393939393939393939393939393939393939393939393939393939393939393939393939393939393939393939393939393939393939393939393939300000000
93939393939393939393939393939393939393939393939393939393939393939393939393939393939393939393939393939393939393939393939393939393939393939393939300000000
9c9f896f8ab19b6c938c7a9381d19891959964a37e9193937c826b717fae8c93a6c7988a82948ba48a99adc09a747d8193937b789d938572808aab768ab395d79a81938d81a8a7a700003479
c6977a5380773e509391717f5c91938b949379939393939393749393959d719393689393b27c939893976c82576a77933e937fb693955b70a48050b868816c6693979367ad869f450001e14b
93939393939393939393939393939393939393939393939393939393939393939393939393939393939393939393939393939393939393939393939393939393939393939393939300000000
93939393939393939393939393939393939393939393939393939393939393939393939393939393939393939393939393939393939393939393939393939393939393939393939300000000
8d81998f9293a0a6934dc4b5a0a160a780b69e9582979393992ed0d5907bc19354968f549380f7998c92b39a78cc82bc7b936385aca8a0959388a9969dcb948e679d93848585a9a8ffffbdbd
a8abb094899ea998936e7db6ada07e95ad82b68c5d9c9393887e80a96dbea4938b9a936ba842e78b89a89ea97acd4b7c7f93ba91ad9b8a988b9c959b9e9399ad9198937e7c8a8d92ffffdb34
a1b3bf8ea8988ca193889eb47c8e93a0a084b2997a85939365987fa2a19ab093b298998a807cae968497abb67e8c89927e93b4579391adca99a295a28a857d9cb38893783c5b83a6ffffe873
93939393939393939393939393939393939393939393939393939393939393939393939393939393939393939393939393939393939393939393939393939393939393939393939300000000
93939393939393939393939393939393939393939393939393939393939393939393939393939393939393939393939393939393939393939393939393939393939393939393939300000000
bc8e8796aad2bda593b29f7d79918eab9a84a5878d8e9393859b8587ad7e94939a6b918b6f7d84866eaac3b4a38ca6a27f93b66b7e9bb794b0bcd0c384906f9a846f938f79af5593ffffc1fe
93939393939393939393939393939393939393939393939393939393939393939393939393939393939393939393939393939393939393939393939393939393939393939393939300000000
c4808c6fa8a1c370938860a955989993768355807c7b939346b38b79899382939b99939290789b80a26aaabda279928777937f828879bd8c82a4bc989384a7829c4d939f7a98c69e0000afdd
93939393939393939393939393939393939393939393939393939393939393939393939393939393939393939393939393939393939393939393939393939393939393939393939300000000
93939393939393939393939393939393939393939393939393939393939393939393939393939393939393939393939393939393939393939393939393939393939393939393939300000000
93939393939393939393939393939393939393939393939393939393939393939393939393939393939393939393939393939393939393939393939393939393939393939393939300000000
6eb3dcd0ce9f92989366908acc8cadc0a5d07eb28bd29393cbb099ba97c6a293acbd8198a67c9fa8c47b92a28aa797927a9371aeccc07f9287a97884d0abcca1b5c293aea0a6c67dfffe1985
93939393939393939393939393939393939393939393939393939393939393939393939393939393939393939393939393939393939393939393939393939393939393939393939300000000
97949793938b918f93968b908c9496879795909394939393958e939394928e9398949397999a93939491909290958f928f939799929388939c8d90918e938c8a949793969292979700000f9b
b2516f647e90977d93a8daa57ca59dcb81877ec3cd849393825ee18fa885d9934bae91a27fa7dfb78c7296b6845a86c0a7939d7f9c87ad6d8197a87088d07faa897693ac9b8b8583ffffc0b7
93939393939393939393939393939393939393939393939393939393939393939393939393939393939393939393939393939393939393939393939393939393939393939393939300000000
93939393939393939393939393939393939393939393939393939393939393939393939393939393939393939393939393939393939393939393939393939393939393939393939300000000
c392735a7d779d949394807f6eac8f6e918eb990a18093938c729f859f967293995da0a79b858a998da269707e7475a35193b6c29484737db7658f95547065618c95936e91e5995c00011f94
93939393939393939393939393939393939393939393939393939393939393939393939393939393939393939393939393939393939393939393939393939393939393939393939300000000
4a75b09e969d9e949342a29392b294c56f8787a1999d9393ad82899082c5ae9360b08e67c58095a2b144869c378a768a8c9365c581a06372bc586d5eb5ba96b6ad9993acd152b17400006ba7
93939393939393939393939393939393939393939393939393939393939393939393939393939393939393939393939393939393939393939393939393939393939393939393939300000000
93939393939393939393939393939393939393939393939393939393939393939393939393939393939393939393939393939393939393939393939393939393939393939393939300000000
93939393939393939393939393939393939393939393939393939393939393939393939393939393939393939393939393939393939393939393939393939393939393939393939300000000
9a7091b47ba1b0a693b6a76997caa15e9f8b6a7e9baf9393ad7ed77a6e7f50939ccbc29e52c561816668a69e957c7b89ae938aab7e48a4759582c67f9d7387a2809593a89cc7de99000009d3
68b3a9b59f8c85a7939376daa09f875eafbb7a879baf9393b4b0859083a47093b8979ba0879c8b5bb565a7aa6fa1957e7e938296917bb481698f699db0619672b3ae9399747bc38400000543
929795a4a0b6b0879396965ca38fab989cc39b999dc99393b9a395ba9f9a8693b15597a16d8dbe9f789ba4829392588e9d93716ebed68c894e998c9a8f8b956d99ac939477a1787bffffcc36
