8a668b73737373734673738274733373737357738c7373794e787373736c737375337373636f73737370737668aa736b737373749b697169736a6673616373757e736473735a4b620000756a
73737373737373737373737373737373737373737373737373737373737373737373737373737373737373737373737373737373737373737373737373737373737373737373737300000000
78717973737373738373737473735c7373737b73797373717b7573736e7c73737b6e736f82717373737f7375777f71797373737389766174736488738077737366737f7373837e76ffffc2f7
25557273737359738e7373877173417373735e738d73737e73587373834b7373972b737e85707373737873646b5d8d4d7373737a7c629b6a736caa736e6d735a7d736d73737b776500005850
6b9b4d7373735c73737373447373837373737273697373745850737373727373619473737630737373737352535471727373737373bb3062735873734e3c736697737373737658690000bd95
687c81737373d7736b73736473738f7373733e732e73736f646f7373419573736c83734d6f857373738c73757a3d7478737373726d7640b973797b737c6a73a37b73807373749f6affffe36e
9950457373737373707373ae7373817373736e7358737386a199737373807373a66573735f667373737873722051735d737373747939744a732b7a73907f737e48737773737b558100004c29
73737373737373737373737373737373737373737373737373737373737373737373737373737373737373737373737373737373737373737373737373737373737373737373737300000000
76716f7373735a73d37373687b733373737381737173737473797373e87c73736d7673d27373737373a3737584756d7073737373785e6573737c6773747273596c737673736e7982ffff8fff
55386f7373736b73a1737393767301737373a7738a73737d7876737387867373752a7382897d7373739673877e778b66737373796e7d716a737d8973735773723f73a57373827049fffff58c
73737373737373737373737373737373737373737373737373737373737373737373737373737373737373737373737373737373737373737373737373737373737373737373737300000000
78987e7373738e737b73736e79738b73737380734e73737c6e73737371827373761d73747a8573737356738c3e57717573737374598e819573636873695f738077737973737e705800001172
73737373737373737373737373737373737373737373737373737373737373737373737373737373737373737373737373737373737373737373737373737373737373737373737300000000
74746a7373736673a973737e73736473737383736073737277717373ab6b73736072739f825d737373627377645fb67a7373738c64726370736f7b737070736c6173877373846b71ffffd175
4f7e257373735f738073735777736273737385736873739970937373745d737354997374727d73737352737c677b749c7373737453a48f69738f3a738113737a6f736273737377d0000019e9
6897c17373735d738373737c71735473737327737e737333455e73737369737388687373845b7373734d73805c237980737373754365988a735c867365777356c073677373905e8d000052f8
8c655973737388737c73737378738b73737372735973736d64a673737a7673737f3c737a5f617373737c736b4b6c7268737373726d947e54738077734583739a76737273737c3a7400002679
463f7d7373738e736e73738472736b73737374736073735657147373736473736cb073736f6273737364737da16d717e737373725261917873677973ad617368517374737373747a000051c2
45856573737339738f737367747343737373aa739c7373707b7d73736d4173738a69736db48f737373a273796a3f856c737373784488936a7372bd7385797348667396737385275efffff6c7
57404273737376736f73737674736c7373737a73b8737371757373735a6b7373755f735e7ca6737373767380ac2b717d737373741c7a6286736376736d6c7364ce73377373715d5e000054ea
8484417373734f737873732f7573917373736e73617373916b6e73737c7173733a6c737a5c8e73737377736b269275657373737375b95870735a7373791b737783736d73736a6b7c000073a8
9b8f7b7373737f736c73735b7173977373734f737173736aaf7d73736f8173737f4a73747ab97373736873705771727773737373752a6c5073134a73585c7355637379737365676a00006d90
4c99bf7373737873b373737279736673737373736b73736374537373706b73739d7b7373aa697373736d737a62366d70737373736b6a54697346bb736e6073897c73687373a77e69ffffd3d7
73737373737373737373737373737373737373737373737373737373737373737373737373737373737373737373737373737373737373737373737373737373737373737373737300000000
866f7973737373738873736d75735b7373737c737d737368828673736c8373738369736e89717373738573707783706e737373738c855673735f8773797973705e73857373877783ffffb1e9
49416e7373735b737473739273735973737360736173735669427373736e73736a8e7373717373737371737e8d5d70a87373737471658b6d73457573c77073665373707373736b4b0000632b
73737373737373737373737373737373737373737373737373737373737373737373737373737373737373737373737373737373737373737373737373737373737373737373737300000000
7f6d907373739973e673735c7f7347737373577361737370646e7373ff6f7373817173e7748b7373736a736e64897274737373746c933e7473547a736f7273868b73727373876977ffff63c6
73737373737373737373737373737373737373737373737373737373737373737373737373737373737373737373737373737373737373737373737373737373737373737373737300000000
8d60b27373737d738073739d74737c73737344736e73736040727373736d73734c9473736088737373757397296972a373737373733d848e730e6c73cd76736d567362737376516b00002e05
6a717073737369736473738d72736f73737396736b73736b846c73736c8473738266736d8e6973737389737776546f7b73737371776f6f83734a63736564736d6f73d27373695d5e0000034d
a06f5b7373737f735f73735376738173737377737c73738c86a77373737373736b4273737f6473737373736e37a17368737373738868748173878a734371739c30736573737644740000171e
8e7e5f7373737673737373807173657373737373537373737275737373747373547f737373607373737373867548736e73737373753c467973a87373508773886d73737373718246000041b1
49849073737366738273737c7573627373735a733d73736b83727373736a7373668f73737b697373736b737f6f657395737373743e358ac5738f6d736c64736e78736c73738371b6fffff7ed
73737373737373737373737373737373737373737373737373737373737373737373737373737373737373737373737373737373737373737373737373737373737373737373737300000000
73737373737373737373737373737373737373737373737373737373737373737373737373737373737373737373737373737373737373737373737373737373737373737373737300000000
68828e73737362736573738f7473657373739f7369737379736b737360da73735f3f73636384737373b1736d524d6a797373736e7d717a8973644b73625073815f73be737364cd45ffffead2
73737373737373737373737373737373737373737373737373737373737373737373737373737373737373737373737373737373737373737373737373737373737373737373737300000000
73737373737373737373737373737373737373737373737373737373737373737373737373737373737373737373737373737373737373737373737373737373737373737373737300000000
77977073737380737a73738c6f7339737373bf736b7373775b737373683273737383736a56657373735b736a5b297175737373726961977d73ad7773725a737f7f733073737084a900002d2e
73737373737373737373737373737373737373737373737373737373737373737373737373737373737373737373737373737373737373737373737373737373737373737373737300000000
5b3c4873737385736b7373976f737a7373736c7381737384afa47373657573737f2e736659487373737073539680716f7373737295ae587d73366973af7d73a84c736e7373737d94ffffed65
73737373737373737373737373737373737373737373737373737373737373737373737373737373737373737373737373737373737373737373737373737373737373737373737300000000
8e602d7373736673787373447573787373737f738d737384631e7373736d7373559773738186737373767367779573c8737373745c97588c732577736a66735f4073747373746466000055af
73737373737373737373737373737373737373737373737373737373737373737373737373737373737373737373737373737373737373737373737373737373737373737373737300000000
558c3d737373a6737273734c76736d73737367738073739a677273736b7473736873736d70687373736b7374539d7145737373747b8a739b736c6a737131738e7973767373746872000028b2
66707c73737373736c73739573732c73737360737973737f6c597373735b737338687373516e7373738b73727076729673737373745c9971738f49735767737128734c737372945a00008c15
73737373737373737373737373737373737373737373737373737373737373737373737373737373737373737373737373737373737373737373737373737373737373737373737300000000
7a6c5a7373734d737373736a7473907373737273547373626481737373747373869273737f507373737473426265747f73737372757e5b57735e7373567473852d737373736b4b7000008fd4
506db07373736b73617373b573736b7373734b737f73733f648a7373726c73735a3473726b5473737363736b8e6a6f4b737373728644707373955f737391739c66736173736b885d00005649
73737373737373737373737373737373737373737373737373737373737373737373737373737373737373737373737373737373737373737373737373737373737373737373737300000000
73737373737373737373737373737373737373737373737373737373737373737373737373737373737373737373737373737373737373737373737373737373737373737373737300000000
73737373737373737373737373737373737373737373737373737373737373737373737373737373737373737373737373737373737373737373737373737373737373737373737300000000
73737373737373737373737373737373737373737373737373737373737373737373737373737373737373737373737373737373737373737373737373737373737373737373737300000000
7276897373736973b67373797373477373737f7376737366796e737384787373817373809c6a737373707376646d907d7373737e707253727360a0737b73736f6773897373a46575ffffa910
86798b73737397737173739b74735f737373777370737362488273737373737351747373752d7373736c7371a37e748e7373737371465093738c787384af738b4d73747373782277fffffb3b
7299517373737c737073732a7273717373734d73797373a09e5b737373827373826c737346647373738673542684738d737373747738a39a734757735b2b736855735673736f716b000097d2
7d6c8d7373737373a67373777373437373737b737b73736b7d757373678873738067736b986d7373738a73777c886c80737373729477517173599f738d7f737354738c7373a37e77ffff886b
5c69287373738d7373737357737386737373727367737384758c7373737073735b0673736c4973737371736d487773637373737587a77675737571735b7c739c647372737370728500005b9a
73737373737373737373737373737373737373737373737373737373737373737373737373737373737373737373737373737373737373737373737373737373737373737373737300000000
747e9273737393735c7373727073687373737173757373537d9e7373746b7373cb3073747f3f73737366734e4c6a7264737373738a83517073638c735b1673a1987367737364776f00003a51
7e907f73737378736173737b7f73d473737357736273737b6c6973733d6773736991735068727373736f7379717574807373737369686c9c738190737e75738d7273757373665e82ffffd1aa
73737373737373737373737373737373737373737373737373737373737373737373737373737373737373737373737373737373737373737373737373737373737373737373737300000000
776a7173737355738073738472735273737376739d73739a6b737373686f73737b6973696c7873737376737963a0748173737372846cb558737d66737071733f7573707373887579ffffdf7a
6c699a73737372734c73734d74736a73737362737a73735c6d8673733471737369187342506b73737398737e7f78745d737373727b7e417073a06d73837d7384877373737377847800005c39
86777373737367737973734c71738773737388738173737b483c7373725773733ead737269737373735d737f5c83725973737372387d7d2273846b736446735972736173736c4b5e0000be29
8aa67973737359737273734574738973737370736673736b8c437373757f73735a6f73756ca37373737b736b5b687587737373725f708774733a6273623e736262737a73736c706d0000565d
7474777373737173a873737280735773737374735d7373736d757373bc7573736a7373b06f6b7373737873737173767373737375736e6e737372737374717370637376737376767bffffc820
6d977973737344737b73735771737973737382736c73735e92a1737373837373cd58737286607373735373594891864b7373737985906c7f7379b0734853737bb173707373868453ffffbf95
73737373737373737373737373737373737373737373737373737373737373737373737373737373737373737373737373737373737373737373737373737373737373737373737300000000
73737373737373737373737373737373737373737373737373737373737373737373737373737373737373737373737373737373737373737373737373737373737373737373737300000000
7e705f73737370736f7373657073937373736e73847373757b697373737673735b5a7373717673737373736770a47295737373738b755197737472736779736165737173736e8f5ffffff5d3
