5ec58120d3894ed635f33b6a55d738697a9170635d95b436e1db4bb53c778128d0a84db3a2433bb7c8bc2ca8a8debce4b46dad2b5deb4474d7a6a62ed669c495951a90f64bb0be48fffd2c2e
7e69b96728502d56444844833179577076c43857802e45c6afa88876876e6bb56ba7bb5422bf996344414f7627342397c69ea377c64c7c7e86462d35a6605ead8179848aa57048770000c864
a7a8b1ca62d03297c677b0a5c37080e02f95d9e8b0758b499066ba8e85da4bdcd0d5c4b9e1dcd9303ccdc949ebe3b6605fc75385a09ccf8ce13b6fdef79091ccb08773af595e2670fffa8444
c68c7e3149751146a68362bbe5b1c69ba6851dc05b63af455214d167a674522b384b365cb4596c7c902e71b287709e8ecf36b064aacc815b72aa5225deaebea150818e719f79c296fffecbe4
b266a46f479f94db9cefa9d2c7b3b439b943cbad545a8236ce61ea2ee54e5574b6ac6be342d233617b889c38d5a6487f4cbb36c63099846fa33eb428ec60a7a53a8058b456339762fffd92db
5ebc4d4de661b1289b3dc04aa0e898634f632ea5a87f27c4b58c1cd29c4f888f57d1609e44951d75f3e13ed2b7c549679b7c88807c3956df9a5e9a4d66ac608d2267a92ad24c53b7fffe8294
c0312db83f35e5378cab3b2227695b4093213f9c6b692e8e82331e789e139e899721442107467fbc8968a5882ba8a49e41c767c5916c2e33a0b6983d9f54bd2799b46d622c17c79d00016086
cab717d41728b54fa4a34b4572823c3d6e25bd0eab89439e9211723e95adb16ed2c1c39c6bac27938b373c7994a1394ed1614bb26d8e2a77a5b738255d821abe3032ca6b3eb8b24900003180
a449759c49bb3f9dab7fb84a947bc22f1f367eac9bad2876aebb3b23b44c1b1cae4a9a1a7e2e479e1e2faf76764b4b8bba76438f626d4f5d878e5b1a6a6ca17a5449a06f375159860001443c
38286196c89fd280945689934499cdc179402f275ebf8c34a76f3a8d77e1799e291a9478127077dc26be8b4b4674158fb9549fdb5a4024df8fa9b09a1cac26bf4fa159a2bb3383b4ffff6a37
59a29d90c7545873da2ec9d130716ab063a77b8dcd35dc985fa85d6a643bba974f6f8a86966286c9ce3f5485a8dd30495bad3392dd81d1bb7175df514fb94450534e2f60d84ca845fffe5c6f
522c8d935365a7679db9b58f5bec6e7edcb4e45cccb1e132ab1a52ec66656e76b3339fa088754d6c9ca14a4aa175b6696d378647b63e6f5cd07ed661228e614f71d7255baf9e6d80fffe6c37
c765c5528f5646df77d281e7e53e28d1799643a351998aa28031d16034e3a4accd6e84c54263e677405fb631b67e9cd3b569863c54f2d08ebddd8f8760885988618ce1573cd98060fffcd9f1
c876312944cf345c443796904bbc453843708bc796411d6043a32c347a1fbb67c8c4bcc03cca3860a9963fb2134797b076bf7467519ed01478bcbc3926b8a19e16309ece8d473b26000078c6
61733cab90c3796d22503072498f37accdc8a63575664767a7688e1db7cd1b5badc81d4f6cbc9196be5b9644ca624ca2842e2eb9a0331071869a2570337cb9bf80954680696e781c00003eb9
4356659c5a5f70754c787c5a42b1558e394e948287657e6d948b2b8687ae4b5d926d6c7382567f58b6c88b918d64638e656a9f6b7138695a84827e892673577155837e75d19b718400004268
2dc0596877246e2eb58f66b9c03a2073698dbd8a4c4c1252aa16aa378a228610b3125a43a97c8a78723da38da150c2b389a1a6a5a87cc765712468441f8a30b862b250b3c4686fc800002c44
5f834a538f192596345634ab8e895d3e31126a602c4ac856896a21b85ed6a03ec0af7a629b59b5bdc590a06a1a8f94cc7a7243b74a68892e9e6a81642183606086a089587dcf60b7000052c2
53d84159b281b72dbbc8dd3f9b3b23e2b8767c7be17b27a15a6a5e6c9d625a482d7bd65a3869d029b392b699306ea9df5e8ba7b787b7e3b3c5cb4d82bdc8d151d5b5e2c3e865e4affffc5134
ab65341e50cf49232f2a40c471c86a53a612cb8370347d8bbcb05b6f35b44c877246a8ab64c18762cd97bbdaa54c75779c29afc6a71da72a75c675821fca466b8e683d37494642410000292b
11481acaa6268bc87e6f5d22646333767d5874a27684877430a475bd72712c7b1e32c8af16c48656849f393aaccaac477691b5649417a79acf8821244b375790373d87b7cf5bd27800007293
74b8b0444b64a2c6ad2a47b09ca58f81c463c4b0c4996c33dc26d6a19d7fc12acb93c0ce4b26b91366633f25d535268b81e389c81d3379b25a635fae9e563d1d50634698aac634b5fffeab4b
d19c486ed7625ed24fbd40705a4daf355f47c497d83336585236dad268d33f6e70372e425f9b9c9062cfda61905987695285b6557f7dcd6b44c0456a43d7468aa04fa6d63db9c9e8fffea204
be9dad84d2986ae032ac28326f8089536bd4dfb7d5507768487eb69fb8b2968a338c8d2dc8597ba6c81dc44fe4a529c4b9ab521c34408c4e38c285835fcb9760a59e549d2479a779fffdf15c
35b049a86ede72b9d8ebd070b7816060e6c9d4a1848d539f3987cc4db038c181848fbf888c3032be8664a92898bbcab0da5fadb1ad41bf513c528946628c77318d94e0350f3a849cfffd5cd6
782a6f8e6794333a8e64988a2aa137852731aebc2a34559d3992be451b7a5183c93f78b62f3a977957273775b0b5c29339c1204039ab8fa4378b5c6e93786166ccbcb0725056425400011452
202c766d56a14268878c696cc01e7d1b697b3d76b3c3839a32617569438a3f265a9b7fbf237d7a74b7884d696d586276af40805d9f58796a81ad24514676767f446b21a33463739300017bb0
4dcd7b2b53937775badc537138597a9648278ac9d1d8cb4da39bb08e6742e1a732cf45aa34c2b76a2668d8756a9a5f8fbd59782763d66f55bd25455766bcd9909f3621b4c0303221fffeee87
c5a7d76cb85c3c9098e5cdc3d4d13e579b63d34078c3a33c90329ecf4a5437a0ea3da9d963dda64690b56a673fca63b6c3e48e3854dd3a98ada733d634d075aba14866d345d25ec0fffc6c32
8e41b522d56198409d6fd0714a7aa4bba1ab836eb3358da2e0d1afe16b3289cdd743e2839fade09a6880511f9d91ddc1813c87ae2639998ec1c8b191ab9c237053a35997bd674587fffceae1
584d4480a7bcc0aa5c555b2818d5b3937bab4d219322bd6ec8b468a874419cc23a1ec26e0f9b77d280848f9daa1fa0c80a54a2231eb29a899338a917524a30cc15a9926edf9a93b5ffff68ee
d22e8a3dbd2b263b2f3cb763e1a874d1a630849bce8b4da59594cd2c536b796e5b327fbd30b4967372be8b2e7789b8296ea6cf42b9a9c9d0485b4192e8cf2ed19ac8ca6cb0d173d2fffdb367
2d3e216d624eda7538a327ac19c0804e308c5a50d13d3b5da056369ba1c2cf4288253b828a2d87704bb8a73a8d3823798ab65cc54798a231ba4bafa21fabb5a3474f33639bbf978b00008f3a
393f28795612b3249e69b9d2a348c69d7770b6256e923db24b8db2b38a4e24c2432260b65c82845443a6aac6a79138b797543f7045b824c1c29cb49b4dafc14b868e90c76fb97ca1fffed197
77e28097262e5e7dcbb6e18bc02c3bb2246166d8b9659467b6867bb792d041d1713e4a4e8e8ac8249f56533ad19e5479714bc43fd2836cde27b3bb73913959ccb52e50f44787755bfffe5fc9
4c59bb419857466198a9a5397662456abf2c288c37dcd24edecb6c7c6964ab747250c4c07ad355cc6d85ba65a25756932c7f58368eb859c9b29f7b52e8a387c9b773a9b6392d8a2cfffe7662
65b0ced4cf7d2b25c9c67a5e337e39b2bd416237c6ab915d27ca6ace35738d3b4aae414dd268458a432b1c7a763b1c2bb7ab3c6eaba26230b477a0b49b35565d3dd53122c7d81b87000013c2
569f71b957e4d391bc6d97ae24a265d3c32196c8a4b596e63f92cba87e61c5e4a9a92875c32fcec932bdc695c03a242a5f797f2be1dfd0252f927741b397cf5525a0aa3253cbb4b6fffcbad0
b456ab8ddc302be331c45cb9a82db973b03ed6776666d1994062806a65a182987695cdbedeca3f2aca1a72a47aa754d12fee72b77bedd59c381a5f66495da2d4687a3ba5bbdf34b6fffd748e
614057275e863b1d353c702e8294d4d3be8fd5cb5bc8dc755d6122614a32c26f7c0ea1b8a02b7d95b6373dcf12058b307ec152d2bbc36164a193a4b50a5096946f367d575387182000008042
d37b157f8f50a0429b8653865c1753915d1ec683d19a6948bf502fc0adb19b9dc291a651d19248beab487f1692266f49be9b4967bfae185c56bca6834e8347865f275ddd4f286b3effffbc89
8d3a234071a1bdab716bca2dba317acb7a71bda2135378894c70af9e48952d200e8713538a84c99412b6c699b8b10576a4234f83a810c4607d68897917c48bb82b5540b8ba3616c300003def
6693394bce3b99a3988a424167739f175d824565c46b9dbcb2152fc7ce5e45c7307a0da85aba67a06da032acba393e3aa33e665025c5b8c2b5436d23a19d8f3dcd4a569d1452898000002df7
80869080837c8578755d7d7966868b687b75827d857f918775825a7c7586838676755f77737980867f898168767c726770797d8581717c7e67827d646f6b78807063765f755f7481ffffa7df
9d419a16434b5326a7debd5dbccf7c8e8d5877bf784f3fa4646c7553cd72782d5c7b738dcf327eba141c663fca85869c9fe58117507f9277908a8c1874bca7d8b1574fb69068b652ffff279d
9dbed6a670c3177c6273caa8332d4d21c6b55aa4c1ac5b166bb3acd35b24d11aa4ca3789c5666d321acc3a65aaabb17ac6e3add08fe4c8ad44478f1c8dda4c9829cc4ccebf37c24bfffd9ce4
5e614a22d3cac03e05a97462379348ab0d34ce24a87898eaabcd8b5b9249ad6d4e132343437d9f626b76595b9157009b82bdc64ae92bb45470618d8e1d9a0faec7292dbc8bde527400004d48
2ad2254b6f6ac69b5e877a8c8a54c9915faf65d2ad6e4e37c0b360c8949a94a092366342424aa65e3463883cd2902887907158a891af5dc0d66d8c3b859bbf79489c1ec684719f7ffffeb437
4d587a53699f9bcfbf1eac93af8d236fcc90985f3d4d45b23428aaac8721b684776a5b3ebb6fcd6a586d533714b5b57ca9c6463947c77c928d3ac65ed3a1ba33ab47a3a56d7f3bd4ffff1ccb
a47a8f3584c6d6d7e6cc5e548c91a26d308eb43294ad708dc9dde86129d43b72cd4bc675919ea9bc5143aca039e66be59baba1308190c630a1a2b7d1df7e6fadc3b3d35a9f595f7bfffbea49
959dc59e55e0d0bd415b487d3a9150314c6db5907963abb84899823eb5885d8ba5aa66e1d3a394de416cbfab2f43a885406ccc3e668baad6dcb457578651adb5a712a643b54faea2fffd9704
b1647a263a07dd51693b5a666251cd3f6672703b2349978d684d56a8a14d329f94644171541b21b9d46a435002668846ab8943b76f689cc299d17f7fba4fa925b68f33849e56a6c60000c4e9
8ab72f7695995cab523437b96addc87ab74261938a393a4168590790b4a0cca08d3a9e8023187829e8df6b98d12272658f2f4e5de19dc0d428d6684d32352aba22549c93e08c7bbeffff57b7
1b477bd4918ccfa63f8592983f24748e8eb8ca68547e727caf4c4785c55263a679301b7028702d6f20c3d27e72b2cfb32d98c4ae9a468d8dc983cd7c7f8b71a0661a706c707f215bffff3d2d
96298a8dacc769a6574cc3852a8a70ba714d30d2e0c0c13da88d287470d863cc7c9767c17d71aa45ce5695c05a6286d9677d7d3d8f4ade755e669b79e0742b673d73aaa249ba7f4ffffe206f
cf692928a75ac39bda404fae5faf7a263a3b54cea486e55f2e32624c79b7609893db49c6a0384c768083e1c68726e42d2edcc745889dde692656be31695e5bc48f642ee237cfad88fffed152
430e4791cdc77ec163c31638ad87973d676c4b393c8e699b9d22a24a778d5b1361c0e1b6608ea3442379cb18b393a05d48bd99a1a1401e192d7abe8f9b596f357d3032c2ca44178300007f19
bb574f63c13c9da155c3ab4a8d6cf9a0ef564058557f4961415e686c36d7ee8bd6317c9d5226669887be997cc2318c54a9c642529259a2cc468d693d80db2045669e6c2bf533579affff134d
b2177d3cc87e334d727e21b68275de6e40a9ab5ab765bb656540623ec020ce1e4623c165b4311722b6c138dead2797aa1ba33546813e64c48e998b8887806f4aa4ac9d7d663d435b00004739
3fb57c82634f279e7c0b8a537959c4a7589d1f903dcb25bab4ac85c22372c082b6c1a864360f45c875a714550720bb2538b19999c9981a87451e491e5a7eb708ad966b4e6465af850000ad57
798f775ec44d164e3dc774cacd94535b84b2ac81be91446667b2a4457c9230b4b8c3a3a2a3aacbc17ee08a55d59ab8bba2c1321e9a9cc3c42b23a6cc868a604d383cc66d9476aa3bfffd6280
3c8623d33a2aeb61423bcab3a6bda249f7475ca74fe07377914a544c4375a85b6493da99abcf6fa4b8ff26bba41ea073a18e86e9a39349e178955e5eb7e6aed17d754176b1b6a97bfffd1223
d848ca249e3737637ed2d54871d740a755972844a84d561ebbe0aa586a67d6a545a579df376d7272223553ad46c64281c33e872f236f747f314b74296a82d7cad729da9f51bf21acffff9af9
62a1c7d47e38a490e34895e957dd9a4a86a6ea37d1ba5548574d3586982ba83574e761321746587c37512a6ec21a6280a399af8a6a3b3d954cb7974b7eb61bb5343bb8b6953d50b0ffff78c1
af3d5b2c2bbaa19b63c5d4b4e9a14a9041502e34d9bebc348852e477464dad4167a887d6bc522e6a223ecebfc2e3a0b993774259e172d7b17e426284eb51c4487fb1ea419847a496fffda06e
4b9d1cc55238414264c0cf8c3b8f601fc75b717759cf4dd6567bc98ab667c8ba299881b75834352e9fa32867b4973b896a747fcd51a8c867b25181c80ed224a54b4291b525d15fb6ffff4255
95d6585b5fa9299348d34fb0d59e78c0b65d9da4d47a89c7ac4fc21ad821b27cb3853e80d680246a5a6754c2cbb0515fd634665a827bac971d735935963c809caa4e452f7e4f1f6bfffee2dc
3086c45d45c4d17be3e87e6e37d7bdd4427298c871b19e948aa78a58d6918a905aecec88c1d37f2d6d40d71cd2d976a64a3e60b879a5dc8ed552cc719fbd6078ab2dc9dccb65a051fffbc716
738486765a6863657674a5727b8677517676606b786193767b619f667e6b767a593f7666766a57768274765f638a868d7ba8ae5a4f584976636c7a76595d764c767689766785ab780000791c
bbe0cf56d456b0e4317d2dad7c8883977c5b4f9e92bfd62884afe375e3e6908f6667b943392fd3e083308e2e9aaa556eb835be4bd59698ce3225c3602f98a5436a372e543374b75afffe1531
82498f97d4c5a19cd68a9072c16e879bc53c248e41c86829239f91797d9a9ca4d99f19817d2d6667c07acd569cd624a57e50708a962264cb9b1e1e958254591b6c7474369d842662ffff3fcd
448340826331478c8e62ca4fb0c8e526549f4060809976ee5dd0a47485a5918736952f471b0d503a6fdb86752b400d8b7cb767aece714eb48b577355b5c35171664b6f86dba1635cffffcb39
