68406773be3d69607060a16e5b5585988baa6d38819994c2bb9d7eba1e71398184a8569194bcc5a438abc096a18b73b6ac3b5e4a3950964d8b483b683a7d176d873f726d39435f33ffffe190
8341447341aa8542766f5d62a6987368825a70737350734d738b9c6b739f3c78aa9a2c713373689a7370565a697373a398777359484473a072a1a3ae812eac5da67f745f8e6392a0ffffe008
d9544f6f5f67795ac37e425ab99f77788780ae4dbeae928029898fd3b575bba65c325d5048513ec7759abb37b385c3864488b683adb0aa7e8d45ab42509b589f6764ba4277265677ffff0a64
686db8756657614690584c446e5d537a8c7f703e988dbd8956968e782ec338c94eba3a7c648d4a87c3389f8186935777c9c4b5b7b9c140c85db35968b4942741ad8c82b6a64c7398ffff1035
632260739026407bb1478d894e8f7e7d555669b06392763cb64b51339136b5a577b36a94679470725f7975aeae6d7fa79061ae7676748740923e7c3241b17589b95dc5a043325a27ffffe32a
694c8c739261974e5f88b583b25c6ca7313d35bdb691743f969e844a83355881846d63989355558845aeba435d74ec9e53c049a25c89ac789289ae42b5717d847dc4d931259d777dffff3764
72bda473bf39368ca8968ea070594d605eaf7a7d2676734f566e9e7c548283ab6792a7c54f695961a9559282487735373ea95f6a469b294785ae6fc19cb94e4b4579b1cabba34b7dffff8683
4e745c73739aac9e679567287c388977727a85317d3c7b749f795b6873747278498b5d70627399a28169393d736e738b6872746e73607333717a5d50947ca1705d74804a3c3873a900005b23
b9486a738469665956b27f7a2c97b5a34e4d64ad2cb9818da9bb9e75765fb0403383a57959c8795ca374b77a895161968e873d404a7271b395545e5b51588e81298539825f937aabffff94da
8d6892783f548b5b8a7162838473597372737d867f57909b5d7371a573739b8a7369558d7372374a7673736d7e73738a73737376737373587373606b62646a6d4a73978860517370000016d6
3e486c7368595044ac4e75b7478bae4a8d2b413d7d50b15b4d9438b3767155943bb8b4508b3dab23aeafb957a457688e46354f4236af4773475980adbca55368542871bcadb069a300001e2b
9b7b3373739c6ea9aa7f85784060b43ebd9cc5ca96897e876d5d6462d3b683a4bb64c739a635c1ae46b06d56469f8888975c303cbf9785409da8957dc198685758a7787f95318d76fffea940
44b75271b197beb05677ae809e7f4c885fac5ea2b6886441a9234f66635e69416fbb6098964caf3061c23c92aaad97c0aea3ba8946c7488833a3a795634c7071602b2ebd78a25c89ffff1506
a7abbb7445bb55684932a5507da0c2588a7c495762b636ac9099af73d73b5e6d88544d6d524d72a33a6732395a739f58948f969358a46a699d517287408953792d7d5c6c607d8171fffff047
7790a6716ebcb581d7bb929273c19f5d9eae53b73470cac2af86374cd2b0906d5fb9923fbbaca9309379989a946d85b0ab879a7c914e674389835137848da681bbbfcc706e95677dfffdf67c
464d5d68a57c3d8e42b93fcd3d76558d6e8ebb4c368f5e5f656f7bcb6c3a8bce4179986e9bba923f61356bbd78a5bf9c5f74813254c78c7f657675b9a4ae507eaf9761806aba4fc5ffff3982
6ba1517450b8a1b14bbea9b134322d97b77cb58a878b6c6ca03fc6491136579d59af9e5e4aad7b51b8578f7fc74f3bb5b89b48ac9097899b4b963da845723c6f7738188baa4ab1b1ffff54e5
c5c64d73a8456f3d9941ac75c3aab4968b8fb37c977dbe4f9cd66f55d78657275656634e768d55ad9a567163ba7d994b3bb9a3614ebdac63639d66649f8f7b306eb0646c5925a050ffff144a
95849a73644ecb6b92983d7336a7acb4a5864c595bc055424c6ac066689a7c49635a8840545a8e8dc483849d7ea4706149825a769dc65e6c81716c64a3b5ac76a06fc7c1527a7c7effff14d6
7f3f4a7389bc83beab76a2b4c15a56928d93618d413b4045612d8fbb3e353887896bb29a925a888cbb62bbcbb78600a6bc98c4c027302dae55c52a8fad695d6cc22f979957c799bdfffefd0e
5a818973487ea4b6832b9737d4c274773b9483db9cbe406d83bf6776b3448494c1a390a0725a7ccc60bd7b5b6374ebbd514976b672698d6e6c62514cd08aac708c929fbd8cbf4250fffe81f0
5c5458738f638c6cb273646e5a5b687362967673b22e9e753b54508173424957927333746173ab3f73a16e3d9973739860447c8e369273b3734b7373733b8c5169735d767265737300006d25
7779597336724f377373667a5b419d84793ea3453e6f674b988779ae789a98578a6781697780576a3f8e84483080737374737251947455a17370498270728c7365899f6980767d63000040df
d07faf733c4caa39a23c79a23b45d58981b74691c33eaa6b9989ad8b9c3d8a8bb9557e8b707f5991648a47392d6183369aad825f86719466b5278964c17c7eac3aa1a6526378568cffff4cd3
b549cb7973458ab3788b6a4b453b7c589c93a12e8ec58d799a7993c451c777a38383867db67a3aa4488c3e9ead42897ab2a7928ca6921d7d67426bc8a7506a6f577124756ba04d78ffff271e
559e6e7aae732984885fab2e696e624a2f3a9c2b76a633365648abbe6a4da655526446a7adab6f5e5d67a4ad32529c2c5b2b876f6f5176b26eaf77a141ae5e518fa33d4861848754000058f7
737373736c73737373737373737373737373736c73737a736f73737374737373737373737373727373737373737373717373737073737373737a737073737373737373736e73736e000006c3
d047ae73a4285e1c689b707eab9cc082882c42ba58ab502e655e229b7d6b5c61753962497e7382b9864a2c899078df8b8e814e91a06fd1a78f9060a0a2ac65768c68867a58303c6bffff9e4d
963c6c734c968e436743c5473461ae3e39b331bfa54d6e526c4183227b869baeb67797bd8a34b3bbbf4f3db39799e55c4db843704ca7a6535c78983d6c6da69f5d9273706cb1402bffff9e3e
2450c373bdb18c62a9afb39b7f513390ba655e506f9f993caf5dc9a6703c7b401f68915f9a793b7a7e82ba8577503f8ca5af537b9e7238a358379da470af5789a1364e6e56c7ab95ffff496d
65b73273be6a53b7d5727f58b683a7999b8a7e716652544078688786b684915da980544c6d4384b9d0873e3f66738730457b60966e41c05986666b348fbec37b6eb95cb63d9c8b88ffff45da
a8a6a0736e93a7a38a4f2c606ab1b58c9f3497782175623b5caa48a1b43cb470648b587e5a7ca6879a5a8f4ea359667eb9767a979a50656b60484aad7176474d247e966cb2bc464affff95df
ba8763739bb0bd3f9661826d8d89659eb4556890787373337fce5e9ee755617d9e896a3f7e945fa2876c4d7e8d4dfaa959832f80a477786d8b878d76817dd582aeb1cd3066605344fffede0f
988678734478589e986f92667963874772576284854ca944ad95565aaf6bbb406585c68473798480869678a93f8e9393ad864d65c5b87c88769366998c616474958a8e754f47737affff2d20
7d873273714c644a672b7373736051517950564f62a94132963d7f9d73354a6c56ae76738b5a736538737373a77373953368703473705e72789a44968a8a398651737670ab5e70a60000b3be
769246733a4c6367c04ec16733988fba7bb53dbe5a4fb995496d748ee376728a5d808db1a33847c2988ab6b9809a985a8d3e4a4b4c489c3d78b054486a9679775eb9c221806e7384ffff56ee
c69c69735d4e73a154647c88b7baa0b98e645b9d962d29ab7cbf64a8f577a77e9f7082b472528f3b7e3e9f498373ab7ba4547abcc588d8926971877ead77653a4c4673a64438a199fffecafb
6e745275899b4b6b4b46929b59a13557a46e9a7028809c736c5e825273739d8ea54c5c7f30427b9836467d4f5384757131702d9e5473848761733fa6357d7369a69b9a922e567544000074ad
804b8a73aba59f538d387e528673763ea6597a71876f355d7c639a8280a265a7894f747f7f8841947dae3f323a517d3fb3a13334642e6e37743150825f3c3654838575af738c543500008680
737073736e7373706d7173737373747373737373737273737473747373737373737373737373737373737373737373746f7373736c7370737373737373736f7373737373736e717300000ca7
737994739d4e77587333748565737368445f737370972e6a6d3f6275735a6f7f5856a241388d8b73a0674caea98e687349872b7a723073427377526541a14973617373755a676d5b0000afe8
27a6387399a550a462c97895b66b40b05a829499587da87c8c27b2a863ac46a780afb32cc06ab448a59f4384885d36499a6b9534595f4c8d61ab4d80a2582c40a75787bd61736593ffff684b
3c5c62737630799c525ba27c9f618695656e6a8c9cb09eb43fa1343b7a7c83379dad4098486fa7c35f7f7232807374527b7f77344f627d298b8f5669ad95548678b9623b722e716b0000091f
5f36226c3b6b35af62a545aaa08377975276279c942b76a662a96e8d7b755838a83d8ca379579f9c7673859368739c8b4ab07774975c73ac6f5f8b89afa442a2845820a04c7a5f4dffffc85b
46be8e7385c8479dada63a678b43234e665e3daf77a5968c8882c66f7573883c41a53ea4489a9833835b7faa81457790ab83c0484d7050458c7fb09bb452966268556875aaa63bb5ffff6d66
9c717275989035836f8e607e468a64636846649238602e43a08da25f6e5b809163a29166a5736e8096672e7a52786d7266688c6836a96a48627b5976693893546b5f97645a3b733e00007084
98c19d735c55c6977f4fb4894eb44355757ba8be4490c65046416085474c5aaa4842ae935db9b789b7a3b671c8863853473a406e7e8c9aa5338378808aae888ca0aaa5c658927348ffff001e
436d8c7339b4abb1afa630974dac4cac33585d717075354392589843779173586d7127313e1f977da999307ea537596497a1a43c96af80a9737a4484283b7692886444939256aea600000a49
3a3f977367a938afba488aa055643d86802c505ea76d79b78748adb06c7f394040ac3f2e8f839f72aa4ca7c0b2725bc0be834d65a2559a2d54285a8c3c43b2993345b6b281beb244ffffab36
4cbeca73835548b8856a5f59b78648c16260364c918456cb875a6e961971b5ba68b33c33b8c945a89b668368707c61ba9458b58830b932563c724289bf86546797aba1d076b8888effff1039
61b57c7d5e2a56335599aca22f4e66858893323346b05e7b788a6f6107894974c36c6b6c588a7b678b28b66461a01f9b5992b09d4e435694737a46744440afa15dc25eb5629b74a70000204a
b74daf7368aa853b554b6aac7c7ebe8e534f423c5956313e299d3494ceb74e3a6c51ad758b50a83181345e96b2617c44b75d9894a22a887484ae724fafb677839e886a482db9404afffff761
99506a6c664960b5a768878cbb54b432865bb2b0c1a06d8d6a994933d2989b8ba782af6c8fa29fbb63ac72479273c26d98838c708a76728c8d875a83c449c5775f70c28b3e29a441fffea5d7
909f706f9d614577a45f934152a14574b98d4733ada495579624aec542536fb85e5bb0397075acb7664832ad978f855c734554472b6d3d8c2f44ae9d753828b37e3267932a4eab7f00002348
af53be7376bb8dbb4f4179bf448123646c9e3d6146b6b1526b71b99e6f9a8eb14c6ca63373ae6fb3418e9f41b977a079b84eb68031488dab819f9e66a63b69697f8e6680a75b708effff0d6b
4e875b7049838c9253716db9b3bd804790987ca5d1864f5ec9b42c647c90c7466056a4546c9255817f6633504d74db6d408f40ccb368b8346b6e855b45486074758b95969d706364ffff81ef
7373737373737373737373737373737373737373736d7373777373727373737373737373716d73736e6e7373737377737373737373737370737373726b737373737373727373737300000942
c07c7973934fd1a6ad8d7e588d9dad8ba15d7c4bbc936e435fb7366eff6191b35b6c603f31947b4f6d968386c4708b7779bd77b4623f876c6fc97d41818bc4747688ce82492c594cfffef017
51c08b7793c456a9a061d1a9416a8a89715540a6708a7e76c4bf5984a75d5f7fcc3fa4647434c7a5a98953a54a6982397cbc557771a5c54191726aa2a9525c747b47cd5c924a358efffef905
737376727073736d73716d7373747373736f7373736f73716e7373766d73777373737373747777707273736b7373737373737373737373737373736f73737273737573737373737300000a7e
ae6c5d78425f735e8869b9454f68ca5fa759b35fbc97a1854f6d616cdc7f66b06e4984736a8faa8975b78b506384d653937056b563bdae6ca88b748cc7b789753476b75e68448486fffede12
a569947482a98692a5bb426f9a8c5e6d86bf5e8f5a42b347ac8b583560b14a974e70645e91594372428594864d7f9d939c6faf2f33b0a6579a6cb64a978365924976aa86409d85c9ffff3f75
c192c1737e86aca6813aca2f6f3d6faf97aa7137747f6ea973a08851587d4cbea3ba3c2cac7541808e3da47d3b73543a91c36f498c5e4e9c3c7b6eafcf5e916894807b6da57777acffff2c11
61a9c4739aa2c07f8641b8ac3c9aa747acb98b4743556984477aaf6e4c3e876c7c8678a57d80a95a8d72cc815a75b19c5a904d7b3d6475957245ab8f708f9b90a84ba64b5aad549bfffefef7
70735f724b80647573956f4635777635a38a753da373925b64763a5173887a769390703a5d428687315b48a29aaa7360665a553258906f73718e477a9fa45f728072678e9336673d0000721d
7d57c56f9d854ab679507a815486387493428a6679b0cecf85666373638d3b6d6079895ec18548664e304ad18d7d46d45ccb969db7789a528d80a0586b8b41729f4cb0d660a7aea4fffef37d
4147c47337c160a534725abd7f509256a0ae978aa3c348526e51b6849464b8be9bad7fa1533e5ebb81bc987d9d86a7a3b56b5476b2a95d4845aa3da63e8e5b7f6498a1a6685482aafffebe97
78838b7373738c92726573466b7392975b6a704e6573407446734773735c4183649f7381527690738e73759d73757373537374737137723a7390734889908071724542942e5673710000617a
ba6cc475b17975995f9c5a4c8db43f65559ab7884676aa7f8165774c5b393d622554806243a66445b8864895687a7da4474ba24a94a085b6443667bd58934849a16dad3883b33166ffffd2cc
2e428d73348a2ca3a8bdb0b1aca46d46b54aa1314287ad57a456aea474585b414432782ab39db164b150527f3773bb84614f583a4c323e7a94307059593c6a7ca2743eb6797357a400002cbb
a1ab9d73684662b4c5785667493ecf9d4fa47f864c5c568eae5a2c4ea27d77afa9349f8f894e9baa7574ab2b2f9fb4334db73f305a69876d62a1978aa160c2735f7e73407d534634ffffb10c
5d8f8c73ad7d2c9b804d548725705da33db7b44cae547b8a797c92b16bb47fbb88533e6d347f90436da75cbb4c822b9cab2f2eae42575dad677046a83c90493fad6b179592b8ab7effffc58f
