78787878787878787878787878787878787878787878787878787878787878787878787878787878787878787878787878787878787878787878787878787878787878787878787800000000
78787878787878787878787878787878787878787878787878787878787878787878787878787878787878787878787878787878787878787878787878787878787878787878787800000000
788e908d6b787882969e7f8d7d6978927747775497955878640bbd4484a671996e6d82b45c5a8237c9b8a2839c67446380669d9b8c6e59976f6b6aa7784789789c788d539283783fffff8845
786d645f987878449b845fbfa760783e9d96d636526e6a789d60b16ba6697b4d316b4e62ae855c91768364a2535e4d3fa7a78d7c7ca73f3896a79489788d9378b6785e9dab427877ffffb75e
78787878787878787878787878787878787878787878787878787878787878787878787878787878787878787878787878787878787878787878787878787878787878787878787800000000
78787878787878787878787878787878787878787878787878787878787878787878787878787878787878787878787878787878787878787878787878787878787878787878787800000000
7878787878787878787879797878787878777876787878787877787978787878787878787a78787778787879787878787877787778787778787878787878777878787878787878770000021d
78fe79b0887878519b7987a26c6f78778365837892658478866f5a50847e83767672875b61734556ab536d378237617a7f7040817b4f7c6e907f6e56787f76787078664d2686787600009a5e
78787878787878787878787878787878787878787878787878787878787878787878787878787878787878787878787878787878787878787878787878787878787878787878787800000000
78664387b77878536a9e847c2c4078688a9f8c818381517889638777727dc75364837483718e659554668741577b3782688063b9a52948787c3d735d786a7e784878795b9a5578470000f0d3
78787878787878787878787878787878787878787878787878787878787878787878787878787878787878787878787878787878787878787878787878787878787878787878787800000000
787373657a787877726974788179787c7681767b79707b787473725669726b707e7279728075794c775b7b7e7a6e7672766a766a777a716f726c707e78838778767878795e77787800009639
78787878787878787878787878787878787878787878787878787878787878787878787878787878787878787878787878787878787878787878787878787878787878787878787800000000
78787878787878787878787878787878787878787878787878787878787878787878787878787878787878787878787878787878787878787878787878787878787878787878787800000000
788226685c7878517b717171989f789094a1787d77a667789f1c9350738c90867c517a90888540a6859f5ba79a4c4201607d96a988733494836a71a87834c4784e786d6f956a78b10000046a
78787878787878787878787878787878787878787878787878787878787878787878787878787878787878787878787878787878787878787878787878787878787878787878787800000000
78787878787878787878787878787878787878787878787878787878787878787878787878787878787878787878787878787878787878787878787878787878787878787878787800000000
7882556b7f787865734f88706b93783d399771816a487278b547837a94585c6f51875e86747b967b724d526c64773d639754526c4e7a66846a1c5e6e786b70788f7871908077787b00016f84
78787878787878787878787878787878787878787878787878787878787878787878787878787878787878787878787878787878787878787878787878787878787878787878787800000000
787d7b6e8978787e7e607b7e736e787f767b85678d7a7b78665c5d76637a67717f6d7f5675717548874a787d7f61778a78578866848078747b7373817882857874787a70467578580000a67d
787b72677d78786e7663797f7d6b788172777f7383777978656a6b5467746774807c806d7c7577477e5f7d7f7c6e787c78676f637b727c6f6d65777c787d827875787b7d5079786a0000b0f7
78896b926f787879677c98577cab78683a82578532856978a05f7e9f9bb058a164a28c916377899456557c6c90b61c64935d8b7c4b83873988405c6178916e786d788486a95c785100002eea
78787878787878787878787878787878787878787878787878787878787878787878787878787878787878787878787878787878787878787878787878787878787878787878787800000000
78787878787878787878787878787878787878787878787878787878787878787878787878787878787878787878787878787878787878787878787878787878787878787878787800000000
78787878787878787878787878787878787878787878787878787878787878787878787878787878787878787878787878787878787878787878787878787878787878787878787800000000
78787878787878787878787878787878787878787878787878787878787878787878787878787878787878787878787878787878787878787878787878787878787878787878787800000000
78787878787878787878787878787878787878787878787878787878787878787878787878787878787878787878787878787878787878787878787878787878787878787878787800000000
78787878787878787878787878787878787878787878787878787878787878787878787878787878787878787878787878787878787878787878787878787878787878787878787800000000
78787878787878787878787878787878787878787878787878787878787878787878787878787878787878787878787878787878787878787878787878787878787878787878787800000000
78787878787878787878787878787878787878787878787878787878787878787878787878787878787878787878787878787878787878787878787878787878787878787878787800000000
78826f5a5978788f435d90939ca6784998bb907c754b89788b7876686533ac8a609a7978825a7ea78279609c19428e565e91803e8b8d55952d735b1e787d677863786b68837778b600008e63
78787878787878787878787878787878787878787878787878787878787878787878787878787878787878787878787878787878787878787878787878787878787878787878787800000000
78787878787878787878787878787878787878787878787878787878787878787878787878787878787878787878787878787878787878787878787878787878787878787878787800000000
78787878787878787878787878787878787878787878787878787878787878787878787878787878787878787878787878787878787878787878787878787878787878787878787800000000
78787878787878787878787878787878787878787878787878787878787878787878787878787878787878787878787878787878787878787878787878787878787878787878787800000000
78787878787878787878787878787878787878787878787878787878787878787878787878787878787878787878787878787878787878787878787878787878787878787878787800000000
789291ac9b78787cb7b4a8897052789d8c875f85a9ac8f788e7777a4c0b0c1a367927e847f8470879d73924c8e7f7d91aa9d6fbea1686f8198858a89787683786d78658099947896fffd6677
78787878787878787878787878787878787878787878787878787878787878787878787878787878787878787878787878787878787878787878787878787878787878787878787800000000
78787878787878787878787878787878787878787878787878787878787878787878787878787878787878787878787878787878787878787878787878787878787878787878787800000000
78787878787878787878787878787878787878787878787878787878787878787878787878787878787878787878787878787878787878787878787878787878787878787878787800000000
786f535d6878784f71a67f75d346784063544fb46a8597784542444ba7698881cd34bfb9bfd2285a7a9e88706a867f97a4895f5e659383859f88979d781fc27861789ce17a7d7863ffff6495
78787878787878787878787878787878787878787878787878787878787878787878787878787878787878787878787878787878787878787878787878787878787878787878787800000000
78787878787878787878787878787878787878787878787878787878787878787878787878787878787878787878787878787878787878787878787878787878787878787878787800000000
78787878787878787878787878787878787878787878787878787878787878787878787878787878787878787878787878787878787878787878787878787878787878787878787800000000
78506057677878676c7e61726567786a865c79466c757278607d4e6278746e667b747a676f787453794a65828a7e92735898746c536b93828092627b786fa7787678787d9c857840000102e6
78787878787878787878787878787878787878787878787878787878787878787878787878787878787878787878787878787878787878787878787878787878787878787878787800000000
78787878787878787878787878787878787878787878787878787878787878787878787878787878787878787878787878787878787878787878787878787878787878787878787800000000
78787878787878787878787878787878787878787878787878787878787878787878787878787878787878787878787878787878787878787878787878787878787878787878787800000000
78787878787878787878787878787878787878787878787878787878787878787878787878787878787878787878787878787878787878787878787878787878787878787878787800000000
78787878787878787878787878787878787878787878787878787878787878787878787878787878787878787878787878787878787878787878787878787878787878787878787800000000
78394741737878965b75765882857857668286537f5e5c785f8cb18a552f5e839c628d976c6f8b797a53c4b94c30848c2fb2ac4b29738a6e42715a50785657787e787743a37178590001400b
789779757a78787a786f74756d7378767a7d7c6b807276789270527c6b766c6e8374786c7981797b8b9d7e697e71746b77637f637d8178886e717c7f786d87787c7880798579786c00000718
78787878787878787878787878787878787878787878787878787878787878787878787878787878787878787878787878787878787878787878787878787878787878787878787800000000
78787878787878787878787878787878787878787878787878787878787878787878787878787878787878787878787878787878787878787878787878787878787878787878787800000000
78827e8f447878ae6f6971287fa578a52f4736cb9c82a67836803c5e557690a0b67c8d77409960668c79965faa85a0b95746607e7231acc5555049657853677814789d839da478aa00001afb
78728d68807878816d73886d646c785d6c70717082687378767a7caa63616675755f737e7d816b5d6e518d7c6762717d6e6786756f6d666d6b6c6c6e78696678757875666f6c785d0000f241
78787878787878787878787878787878787878787878787878787878787878787878787878787878787878787878787878787878787878787878787878787878787878787878787800000000
78787878787878787878787878787878787878787878787878787878787878787878787878787878787878787878787878787878787878787878787878787878787878787878787800000000
78787878787878787878787878787878787878787878787878787878787878787878787878787878787878787878787878787878787878787878787878787878787878787878787800000000
788c74607a78789b5b839f6e6b837860708353a0a07c67789e6e919b6479bf8d8187698b6e756a918588745958417b53338a6dac58654c6e4b4c058278528a7872788a1bbf4b788600009784
78787878787878787878787878787878787878787878787878787878787878787878787878787878787878787878787878787878787878787878787878787878787878787878787800000000
78787878787878787878787878787878787878787878787878787878787878787878787878787878787878787878787878787878787878787878787878787878787878787878787800000000
78787878787878787878787878787878787878787878787878787878787878787878787878787878787878787878787878787878787878787878787878787878787878787878787800000000
78a6aa67347878a981837d435b9178985f62655590707178a55351687d7a8796509a2a6365795e7d53a16857b56469ab8f7c4c8340416b99705e2a9f78256e78717840718093787f0000e59f
78654c8e6d78788c7b8bcf80b89a78466662827cbe92a978734bb2998c895ec796b1bbc37f936c1d9b57a29baa8c55919a61478b8b779cae955365af784c8778a4789e8363b6784afffe37ce
788d77939278786c7b5f71806f75787a657b7e6f91767e78796f617d6d6b747f836971676e6a7977837b697d707372906e707a63807d6d796d627374786b66787c78796f697d7860000069c7
78787878787878787878787878787878787878787878787878787878787878787878787878787878787878787878787878787878787878787878787878787878787878787878787800000000
78787878787878787878787878787878787878787878787878787878787878787878787878787878787878787878787878787878787878787878787878787878787878787878787800000000
78787878787878787878787878787878787878787878787878787878787878787878787878787878787878787878787878787878787878787878787878787878787878787878787800000000
78787878787878787878787878787878787878787878787878787878787878787878787878787878787878787878787878787878787878787878787878787878787878787878787800000000
787d787876787878767879777879787777777a79787778787a78797778777779787a787a787b79767777787978797877787777777878787b7776787678777978777878787878787600000036
786c7f677278785191876aad463f78204e656a4d7e922278888d6f789b997b7a86815e7b431e325c998c915b605a3297a9ce6d67726aab82a86d9a727871517856787f76ab9078710000ba23
