658182828282928bc08282827482828285b18282847e82828282829c828282538282829282828282824b82828282828282826184878278828257828280825682888282826c75828200003686
6481828282829473e482828290828282499d8282911f828282828266828282918282824a8282828282878282828282828282a77b7282bd8282948282708282825d8382827b92828200001833
82828282828284808282828281828282828182828282828282828282828282828282827f82828282828182828282828282828182818282828281828282828282868282827f8282820000032e
828282828282828282828282828282828282828282828282828282828282828282828281828282828282828282828282828282828282838282828282828282828282828282828282fffffff0
827d828282828e7e828282828282828285828282727e828282828296828282778282828382828282828782828282828282828a7b948263828286828281828482fd828282767e8282ffffd305
6880828282827d608582828254828282874c82828a5b828282828273828282388282828782828282829f82828282828282826b8588827282827682828082958279848282ad85828200006840
82828282828282828282828282828282828282828282828282828282828282828282828282828282828282828282828282828282828282828282828282828282828282828282828200000000
82828282828282828282828282828282828282828282828282828282828282828282828282828282828282828282828282828282828282828282828282828282828282828282828200000000
6781828282827e6f70828282cf8282828b7b828281798282828282808282828b828282878282828282cb8282828282828282398582825582823882827f825e82928182827f858282000035dd
82828282828282828282828282828282828282828282828282828282828282828282828282828282828282828282828282828282828282828282828282828282828282828282828200000000
82828282828282828282828282828282828282828282828282828282828282828282828282828282828282828282828282828282828282828282828282828282828282828282828200000000
828282828282828282828282828282828282828282828282828282828282828282828282828282828282828282828282828282828282828282828282828282828282828282828282ffffffff
82828282828282828282828282828282828282828282828282828282828282828282828282828282828282828282828282828282828282828282828282828282828282828282828200000000
82828282828282828282828282828282828282828282828282828282828282828282828282828282828282828282828282828282828282828282828282828282828282828282828200000000
8c818282828292729182828277828282828182829281828282828286828282828282827e82828282828382828282828282828c868b828c82828d8282878285829e8282828f958282ffffc0a5
82828282828282828282828282828282828282828282828282828282828282828282828282828282828282828282828282828282828282828282828282828282828282828282828200000000
678282828282838677828282598282827c97828281a582828282827482828298828282268282828282b8828282828282828254736a824f8282ac828273826c825f838282956b828200006412
82828282828282828282828282828282828282828282828282828282828282828282828282828282828282828282828282828282828282828282828282828282828282828282828200000000
7580828282829079888282828c82828282758282948682828282827a8282828b8282827e82828282827e828282828282828291838c829a8282898282838274829f828282898d8282ffffd2f2
82828282828282828282828282828282828282828282828282828282828282828282828282828282828282828282828282828282828282828282828282828282828282828282828200000000
807d82828282678378828282c38282827299828279a58282828282388282827e828282498282828282a08282828282828282784737828382828a82824f8268828d8382827c74828200007a00
82828282828282828282828282828282828282828282828282828282828282828282828282828282828282828282828282828282828282828282828282828282828282828282828200000000
82828282828282828282828282828282828282828282828282828282828282828282828282828282828282828282828282828282828282828282828282828282828282828282828200000000
c580828282828e79548282825a8282828aa18282808c828282828286828282528282828482828282826a82828282828282825f8e90829682827482828b825182758282824085828200004448
82828282828282828282828282828282828282828282828282828282828282828282828282828282828282828282828282828282828282828282828282828282828282828282828200000000
82828282828282828282828282828282828282828282828282828282828282828282828282828282828282828282828282828282828282828282828282828282828282828282828200000000
82828282828282828282828282828282828282828282828282828282828282828282828282828282828282828282828282828282828282828282828282828282828282828282828200000000
82828282828282828282828282828282828282828282828282828282828282828282828282828282828282828282828282828282828282828282828282828282828282828282828200000000
a7828282828285288f828282788282827e7e82827e5782828282824e828282758282829482828282827a82828282828282825f7f7a827682827f82828182ad8282828282ac99828200002e10
82828282828282828282828282828282828282828282828282828282828282828282828282828282828282828282828282828282828282828282828282828282828282828282828200000000
c18582828282b7689382828278828282ba708282af718282828282cf828282998282823d828282828260828282828282828254d7dc82b68282908282b08299826481828280808282ffff5af4
82828282828282828282828282828282828282828282828282828282828282828282828282828282828282828282828282828282828282828282828282828282828282828282828200000000
968482828282886c89828282c68282827f5c82825f598282828282a38282827b82828276828282828252828282828282828274797b825282826382827982cb828f838282888a82820000253d
82828282828282828282828282828282828282828282828282828282828282828282828282828282828282828282828282828282828282828282828282828282828282828282828200000000
82828282828282828282828282828282828282828282828282828282828282828282828282828282828282828282828282828282828282828282828282828282828282828282828200000000
c28082828282ad7eca828282af8282828f7f8282885c82828282826c8282828c8282827782828282828d828282828282828270969e826282827182828d828a829a8282825ab68282ffff9bdf
82828282828282828282828282828282828282828282828282828282828282828282828282828282828282828282828282828282828282828282828282828282828282828282828200000000
958482828282858c8a8282828982828277738282796b82828282828c82828278828282c682828282826e828282828282828280817f826882827c82828382ab828081828284878282ffffe5d8
82828282828282828282828282828282828282828282828282828282828282828282828282828282828282828282828282828282828282828282828282828282828282828282828200000000
8082828282828b798e8282827f828282857f82828e83828282828285828282838282827b828282828280828282828282828280888e8289828289828286827f829882828289878282ffffdbdb
82828282828282828282828282828282828282828282828282828282828282828282828282828282828282828282828282828282828282828282828282828282828282828282828200000000
61828282828279aa7a8282826e82828279aa828282ba82828282827a828282878282820282828282828d8282828282828282718167828582824b828279827c829580828272a2828200003fd0
82828282828282828282828282828282828282828282828282828282828282828282828282828282828282828282828282828282828282828282828282828282828282828282828200000000
82828282828282828282828282828282828282828282828282828282828282828282828282828282828282828282828282828282828282828282828282828282828282828282828200000000
82828282828282828282828282828282828282828282828282828282828282828282828282828282828282828282828282828282828282828282828282828282828282828282828200000000
82828282828282828282828282828282828282828282828282828282828282828282828282828282828282828282828282828282828282828282828282828282828282828282828200000000
978382828282954d678282825c828282817f8282867382828282826f828282788282829c82828282824d828282828282828251837d82738282598282838270828e8282827744828200009533
837f82828282839d8c8282826a8282827a648282866c8282828282658282826e8282823e8282828282788282828282828282996a6b829482825782826d825a82a182828297a4828200005b15
6c84828282827cb69d8282826b82828280918282827c828282828281828282a58282825b8282828282468282828282828282888880828482827482827e82b7828f8382829cc88282ffffc405
82828282828282828282828282828282828282828282828282828282828282828282828282828282828282828282828282828282828282828282828282828282828282828282828200000000
8583828282827c266c828282838282827ea982828f57828282828260828282ab8282829382828282829d82828282828282827e817a827f828294828281825482958282825b88828200003424
6282828282827d8b76828282a3828282817c82827c75828282828252828282848282827382828282824f82828282828282828f878782408282d0828283829f829384828276a8828200000bc7
82828282828282828282828282828282828282828282828282828282828282828282828282828282828282828282828282828282828282828282828282828282828282828282828200000000
82828282828282828282828282828282828282828282828282828282828282828282828282828282828282828282828282828282828282828282828282828282828282828282828200000000
82828282828282828282828282828282828282828282828282828282828282828282828282828282828282828282828282828282828282828282828282828282828282828282828200000000
ad85828282829c6fc082828299828282a66e82829e9b8282828282648282826b8282824282828282827682828282828282826c909d82bd82828382829182af82c17e82827a7e8282ffff923f
82828282828282828282828282828282828282828282828282828282828282828282828282828282828282828282828282828282828282828282828282828282828282828282828200000000
598282828282a97285828282bf828282879e8282884282828282827f8282828d8282826982828282828782828282828282825f8f99826d82828482828882e1828d82828250b68282ffffcf73
82828282828282828282828282828282828282828282828282828282828282828282828282828282828282828282828282828282828282828282828282828282828282828282828200000000
82828282828282828282828282828282828282828282828282828282828282828282828282828282828282828282828282828282828282828282828282828282828282828282828200000000
82828282828282828282828282828282828282828282828282828282828282828282828282828282828282828282828282828282828282828282828282828282828282828282828200000000
82828282828282828282828282828282828282828282828282828282828282828282828282828282828282828282828282828282828282828282828282828282828282828282828200000000
8e83828282827590b88282828682828284af8282838b828282828278828282c18282827e82828282827e82828282828282829a8881826882827582827f826f827e828282627e8282ffffd1ae
82828282828282828282828282828282828282828282828282828282828282828282828282828282828282828282828282828282828282828282828282828282828282828282828200000000
82828282828282828282828282828282828282828282828282828282828282828282828282828282828282828282828282828282828282828282828282828282828282828282828200000000
74838282828285c68382828288828282948282828168828282828282828282718282826582828282827a8282828282828282b4796e82ad8282508282848254828a8182824a9d82820000140c
82828282828282828282828282828282828282828282828282828282828282828282828282828282828282828282828282828282828282828282828282828282828282828282828200000000
82828282828282828282828282828282828282828282828282828282828282828282828282828282828282828282828282828282828282828282828282828282828282828282828200000000
6482828282828584798282826682828280588282818b8282828282a6828282b28282828282828282823f828282828282828266847e826f82824b82827f82b182a6828282b258828200002a1c
82828282828282828282828282828282828282828282828282828282828282828282828282828282828282828282828282828282828282828282828282828282828282828282828200000000
8583828282827e76718282825b828282729582826f5582828282829d828282938282827882828282829b82828282828282827b847f82698282b1828282829f827c838282ba7e8282fffff5ba
82828282828282828282828282828282828282828282828282828282828282828282828282828282828282828282828282828282828282828282828282828282828282828282828200000000
